{
  "version": "1.0",
  "truncation": null,
  "padding": null,
  "added_tokens": [
    {
      "id": 0,
      "content": "<pad>",
      "single_word": false,
      "lstrip": false,
      "rstrip": false,
      "normalized": false,
      "special": true
    },
    {
      "id": 1,
      "content": "<unk>",
      "single_word": false,
      "lstrip": false,
      "rstrip": false,
      "normalized": false,
      "special": true
    },
    {
      "id": 2,
      "content": "<user>",
      "single_word": false,
      "lstrip": false,
      "rstrip": false,
      "normalized": false,
      "special": true
    },
    {
      "id": 3,
      "content": "<assistant>",
      "single_word": false,
      "lstrip": false,
      "rstrip": false,
      "normalized": false,
      "special": true
    },
    {
      "id": 4,
      "content": "<end>",
      "single_word": false,
      "lstrip": false,
      "rstrip": false,
      "normalized": false,
      "special": true
    }
  ],
  "normalizer": null,
  "pre_tokenizer": {
    "type": "ByteLevel",
    "add_prefix_space": false,
    "trim_offsets": true,
    "use_regex": true
  },
  "post_processor": null,
  "decoder": {
    "type": "ByteLevel",
    "add_prefix_space": true,
    "trim_offsets": true,
    "use_regex": true
  },
  "model": {
    "type": "BPE",
    "dropout": null,
    "unk_token": "<unk>",
    "continuing_subword_prefix": null,
    "end_of_word_suffix": null,
    "fuse_unk": false,
    "byte_fallback": false,
    "ignore_merges": false,
    "vocab": {
      "<pad>": 0,
      "<unk>": 1,
      "<user>": 2,
      "<assistant>": 3,
      "<end>": 4,
      "!": 5,
      "\"": 6,
      "#": 7,
      "$": 8,
      "%": 9,
      "&": 10,
      "'": 11,
      "(": 12,
      ")": 13,
      "*": 14,
      "+": 15,
      ",": 16,
      "-": 17,
      ".": 18,
      "/": 19,
      "0": 20,
      "1": 21,
      "2": 22,
      "3": 23,
      "4": 24,
      "5": 25,
      "6": 26,
      "7": 27,
      "8": 28,
      "9": 29,
      ":": 30,
      ";": 31,
      "<": 32,
      "=": 33,
      ">": 34,
      "?": 35,
      "@": 36,
      "A": 37,
      "B": 38,
      "C": 39,
      "D": 40,
      "E": 41,
      "F": 42,
      "G": 43,
      "H": 44,
      "I": 45,
      "J": 46,
      "K": 47,
      "L": 48,
      "M": 49,
      "N": 50,
      "O": 51,
      "P": 52,
      "Q": 53,
      "R": 54,
      "S": 55,
      "T": 56,
      "U": 57,
      "V": 58,
      "W": 59,
      "X": 60,
      "Y": 61,
      "Z": 62,
      "[": 63,
      "\\": 64,
      "]": 65,
      "^": 66,
      "_": 67,
      "`": 68,
      "a": 69,
      "b": 70,
      "c": 71,
      "d": 72,
      "e": 73,
      "f": 74,
      "g": 75,
      "h": 76,
      "i": 77,
      "j": 78,
      "k": 79,
      "l": 80,
      "m": 81,
      "n": 82,
      "o": 83,
      "p": 84,
      "q": 85,
      "r": 86,
      "s": 87,
      "t": 88,
      "u": 89,
      "v": 90,
      "w": 91,
      "x": 92,
      "y": 93,
      "z": 94,
      "{": 95,
      "|": 96,
      "}": 97,
      "~": 98,
      "¡": 99,
      "¢": 100,
      "£": 101,
      "¤": 102,
      "¥": 103,
      "¦": 104,
      "§": 105,
      "¨": 106,
      "©": 107,
      "ª": 108,
      "«": 109,
      "¬": 110,
      "®": 111,
      "¯": 112,
      "°": 113,
      "±": 114,
      "²": 115,
      "³": 116,
      "´": 117,
      "µ": 118,
      "¶": 119,
      "·": 120,
      "¸": 121,
      "¹": 122,
      "º": 123,
      "»": 124,
      "¼": 125,
      "½": 126,
      "¾": 127,
      "¿": 128,
      "À": 129,
      "Á": 130,
      "Â": 131,
      "Ã": 132,
      "Ä": 133,
      "Å": 134,
      "Æ": 135,
      "Ç": 136,
      "È": 137,
      "É": 138,
      "Ê": 139,
      "Ë": 140,
      "Ì": 141,
      "Í": 142,
      "Î": 143,
      "Ï": 144,
      "Ð": 145,
      "Ñ": 146,
      "Ò": 147,
      "Ó": 148,
      "Ô": 149,
      "Õ": 150,
      "Ö": 151,
      "×": 152,
      "Ø": 153,
      "Ù": 154,
      "Ú": 155,
      "Û": 156,
      "Ü": 157,
      "Ý": 158,
      "Þ": 159,
      "ß": 160,
      "à": 161,
      "á": 162,
      "â": 163,
      "ã": 164,
      "ä": 165,
      "å": 166,
      "æ": 167,
      "ç": 168,
      "è": 169,
      "é": 170,
      "ê": 171,
      "ë": 172,
      "ì": 173,
      "í": 174,
      "î": 175,
      "ï": 176,
      "ð": 177,
      "ñ": 178,
      "ò": 179,
      "ó": 180,
      "ô": 181,
      "õ": 182,
      "ö": 183,
      "÷": 184,
      "ø": 185,
      "ù": 186,
      "ú": 187,
      "û": 188,
      "ü": 189,
      "ý": 190,
      "þ": 191,
      "ÿ": 192,
      "Ā": 193,
      "ā": 194,
      "Ă": 195,
      "ă": 196,
      "Ą": 197,
      "ą": 198,
      "Ć": 199,
      "ć": 200,
      "Ĉ": 201,
      "ĉ": 202,
      "Ċ": 203,
      "ċ": 204,
      "Č": 205,
      "č": 206,
      "Ď": 207,
      "ď": 208,
      "Đ": 209,
      "đ": 210,
      "Ē": 211,
      "ē": 212,
      "Ĕ": 213,
      "ĕ": 214,
      "Ė": 215,
      "ė": 216,
      "Ę": 217,
      "ę": 218,
      "Ě": 219,
      "ě": 220,
      "Ĝ": 221,
      "ĝ": 222,
      "Ğ": 223,
      "ğ": 224,
      "Ġ": 225,
      "ġ": 226,
      "Ģ": 227,
      "ģ": 228,
      "Ĥ": 229,
      "ĥ": 230,
      "Ħ": 231,
      "ħ": 232,
      "Ĩ": 233,
      "ĩ": 234,
      "Ī": 235,
      "ī": 236,
      "Ĭ": 237,
      "ĭ": 238,
      "Į": 239,
      "į": 240,
      "İ": 241,
      "ı": 242,
      "Ĳ": 243,
      "ĳ": 244,
      "Ĵ": 245,
      "ĵ": 246,
      "Ķ": 247,
      "ķ": 248,
      "ĸ": 249,
      "Ĺ": 250,
      "ĺ": 251,
      "Ļ": 252,
      "ļ": 253,
      "Ľ": 254,
      "ľ": 255,
      "Ŀ": 256,
      "ŀ": 257,
      "Ł": 258,
      "ł": 259,
      "Ń": 260,
      "an": 261,
      "Ġt": 262,
      "en": 263,
      "in": 264,
      "er": 265,
      "Ġa": 266,
      "end": 267,
      "Ġs": 268,
      "ou": 269,
      "Ġ<": 270,
      "Ġc": 271,
      "he": 272,
      "at": 273,
      "re": 274,
      "is": 275,
      "or": 276,
      "as": 277,
      "us": 278,
      "ing": 279,
      "es": 280,
      "on": 281,
      "Ġan": 282,
      "Ġf": 283,
      "ĠI": 284,
      "Ġto": 285,
      "Ġw": 286,
      "ant": 287,
      "ist": 288,
      "Ġm": 289,
      "ass": 290,
      "user": 291,
      "Ġand": 292,
      "Ġy": 293,
      "Ġp": 294,
      "istant": 295,
      "it": 296,
      "Ġb": 297,
      "assistant": 298,
      "Ġyou": 299,
      "Ġthe": 300,
      "ll": 301,
      "ĠH": 302,
      "ar": 303,
      "hat": 304,
      "Ġl": 305,
      "Ġo": 306,
      "Ġd": 307,
      "om": 308,
      "Ġin": 309,
      "Ġg": 310,
      "Ġcan": 311,
      "ay": 312,
      "ow": 313,
      "al": 314,
      "ic": 315,
      "le": 316,
      "Ġh": 317,
      "ĠT": 318,
      "Ġhe": 319,
      "ed": 320,
      "Ġfor": 321,
      "ion": 322,
      "Ġof": 323,
      "oo": 324,
      "et": 325,
      "ve": 326,
      "Ġe": 327,
      "Ġhel": 328,
      "Ġhelp": 329,
      "ĠW": 330,
      "Ġth": 331,
      "Ġre": 332,
      "'s": 333,
      "ke": 334,
      "ell": 335,
      "Ġn": 336,
      "ent": 337,
      "ĠY": 338,
      "Ġor": 339,
      "Ġst": 340,
      "ct": 341,
      "ĠWhat": 342,
      "id": 343,
      "Ġis": 344,
      "ĠHow": 345,
      "ome": 346,
      "ro": 347,
      "ĠHell": 348,
      "ĠHello": 349,
      "am": 350,
      "im": 351,
      "ul": 352,
      "Ġare": 353,
      "out": 354,
      "Ġli": 355,
      "day": 356,
      "Ġyour": 357,
      "'m": 358,
      "Ġtr": 359,
      "Ġtoday": 360,
      "Ġon": 361,
      "ch": 362,
      "all": 363,
      "Ġha": 364,
      "oun": 365,
      "ĠThat": 366,
      "ds": 367,
      "Ġit": 368,
      "th": 369,
      "op": 370,
      "Ġsu": 371,
      "ith": 372,
      "ig": 373,
      "il": 374,
      "ce": 375,
      "st": 376,
      "Ġwith": 377,
      "king": 378,
      "Ġma": 379,
      "Ġbe": 380,
      "est": 381,
      "ation": 382,
      "if": 383,
      "ĠA": 384,
      "Ġthat": 385,
      "ter": 386,
      "ere": 387,
      "el": 388,
      "Ġlike": 389,
      "ood": 390,
      "Ġmo": 391,
      "ut": 392,
      "ir": 393,
      "ĠYou": 394,
      "se": 395,
      "ĠS": 396,
      "reat": 397,
      "ers": 398,
      "Ġhave": 399,
      "Ġr": 400,
      "Ġal": 401,
      "Ġsh": 402,
      "Ġus": 403,
      "Ġdo": 404,
      "ur": 405,
      "ot": 406,
      "ĠHi": 407,
      "Ġv": 408,
      "Ġne": 409,
      "un": 410,
      "Ġab": 411,
      "Ġsome": 412,
      "ht": 413,
      "Ġany": 414,
      "Ġex": 415,
      "Ġwh": 416,
      "ab": 417,
      "ol": 418,
      "Ġpl": 419,
      "Ġabout": 420,
      "ep": 421,
      "ĠThe": 422,
      "ĠYes": 423,
      "Ġcon": 424,
      "ĠC": 425,
      "so": 426,
      "Ġsoun": 427,
      "pe": 428,
      "ĠD": 429,
      "Ġcom": 430,
      "ck": 431,
      "ud": 432,
      "ular": 433,
      "ad": 434,
      "ies": 435,
      "Ġas": 436,
      "ide": 437,
      "art": 438,
      "Ġsounds": 439,
      "Ġalso": 440,
      "ions": 441,
      "Ġwe": 442,
      "pp": 443,
      "Ġthere": 444,
      "Ġmy": 445,
      "qu": 446,
      "Ġinc": 447,
      "ld": 448,
      "ly": 449,
      "ain": 450,
      "Ġch": 451,
      "Ġgood": 452,
      "ĠO": 453,
      "Ġpro": 454,
      "ally": 455,
      "res": 456,
      "Ġpop": 457,
      "ver": 458,
      "em": 459,
      "ess": 460,
      "ight": 461,
      "ip": 462,
      "Ġpopular": 463,
      "Ġse": 464,
      "ag": 465,
      "ort": 466,
      "Ġloo": 467,
      "Ġle": 468,
      "fer": 469,
      "ks": 470,
      "Ġwor": 471,
      "Ġgreat": 472,
      "ind": 473,
      "Ġincl": 474,
      "Ġinclud": 475,
      "Ġk": 476,
      "Ġfr": 477,
      "ive": 478,
      "our": 479,
      "Ġme": 480,
      "ould": 481,
      "ect": 482,
      "ĠTh": 483,
      "Ġtry": 484,
      "iv": 485,
      "Ġat": 486,
      "ĠDo": 487,
      "ĠIt": 488,
      "ity": 489,
      "able": 490,
      "oc": 491,
      "ine": 492,
      "'re": 493,
      "ning": 494,
      "Ġen": 495,
      "imp": 496,
      "pt": 497,
      "Ġmore": 498,
      "ate": 499,
      "ra": 500,
      "ĠM": 501,
      "'ll": 502,
      "Ġrec": 503,
      "Ġinter": 504,
      "os": 505,
      "ial": 506,
      "Ġlooking": 507,
      "Ġad": 508,
      "ment": 509,
      "Ġcl": 510,
      "ast": 511,
      "Ġinclude": 512,
      "and": 513,
      "ĠF": 514,
      "ater": 515,
      "ill": 516,
      "Ġsp": 517,
      "Ġde": 518,
      "ure": 519,
      "ime": 520,
      "ore": 521,
      "up": 522,
      "um": 523,
      "ice": 524,
      "Ġbut": 525,
      "Ġfe": 526,
      "kay": 527,
      "Ġnew": 528,
      "ĠE": 529,
      "Ġget": 530,
      "any": 531,
      "ĠOkay": 532,
      "ĠG": 533,
      "Ġfrom": 534,
      "ard": 535,
      "ff": 536,
      "Ġgr": 537,
      "orm": 538,
      "Ġby": 539,
      "Ġty": 540,
      "ĠThey": 541,
      "leep": 542,
      "ang": 543,
      "Ġstart": 544,
      "Ġdif": 545,
      "Ġte": 546,
      "Ġthin": 547,
      "iz": 548,
      "du": 549,
      "Ġide": 550,
      "ful": 551,
      "ĠP": 552,
      "Ġche": 553,
      "ey": 554,
      "kes": 555,
      "ations": 556,
      "Ġdiffer": 557,
      "Ġsleep": 558,
      "Ġj": 559,
      "Ġcomm": 560,
      "ther": 561,
      "les": 562,
      "Ġspe": 563,
      "Ġcons": 564,
      "Ġlear": 565,
      "Ġsc": 566,
      "Ġway": 567,
      "ust": 568,
      "Ġmake": 569,
      "ance": 570,
      "ack": 571,
      "ving": 572,
      "Ġar": 573,
      "Ġgo": 574,
      "Ġuse": 575,
      "Ġneed": 576,
      "Ġinterest": 577,
      "Ġshould": 578,
      "ĠB": 579,
      "Ġimp": 580,
      "Ġwork": 581,
      "now": 582,
      "ence": 583,
      "Ġout": 584,
      "ting": 585,
      "Ġthem": 586,
      "als": 587,
      "ĠN": 588,
      "ces": 589,
      "form": 590,
      "are": 591,
      "ts": 592,
      "ten": 593,
      "ents": 594,
      "ĠSome": 595,
      "Ġbr": 596,
      "Ġfam": 597,
      "Ġup": 598,
      "Ġta": 599,
      "ich": 600,
      "omm": 601,
      "Ġif": 602,
      "der": 603,
      "Ġtheir": 604,
      "ap": 605,
      "gg": 606,
      "Ġthan": 607,
      "Ġopt": 608,
      "ong": 609,
      "ĠAre": 610,
      "Ġapp": 611,
      "age": 612,
      "Ġro": 613,
      "Ġtime": 614,
      "ors": 615,
      "Ġfind": 616,
      "Ġbet": 617,
      "act": 618,
      "we": 619,
      "her": 620,
      "Ġso": 621,
      "per": 622,
      "Ġke": 623,
      "ool": 624,
      "ach": 625,
      "Ġun": 626,
      "ry": 627,
      "Ġmus": 628,
      "Ġmany": 629,
      "ider": 630,
      "ĠCan": 631,
      "get": 632,
      "Ġqu": 633,
      "Ġwhat": 634,
      "bs": 635,
      "ri": 636,
      "ily": 637,
      "Ġsen": 638,
      "Ġco": 639,
      "Ġwater": 640,
      "Ġthey": 641,
      "Ġall": 642,
      "ĠR": 643,
      "Ġcomp": 644,
      "Ġint": 645,
      "ose": 646,
      "Ġsm": 647,
      "ile": 648,
      "Ġbo": 649,
      "Ġspec": 650,
      "Ġnot": 651,
      "Ġhelpful": 652,
      "ress": 653,
      "ble": 654,
      "ie": 655,
      "ĠIs": 656,
      "av": 657,
      "ommend": 658,
      "Ġrecommend": 659,
      "ually": 660,
      "ous": 661,
      "ĠL": 662,
      "ick": 663,
      "amp": 664,
      "Ġmain": 665,
      "Ġknow": 666,
      "Ġev": 667,
      "Ġtyp": 668,
      "Ġthink": 669,
      "Ġmakes": 670,
      "ings": 671,
      "Ġoften": 672,
      "ree": 673,
      "ific": 674,
      "ace": 675,
      "Ġplan": 676,
      "come": 677,
      "cis": 678,
      "ound": 679,
      "Ġdis": 680,
      "ĠHey": 681,
      "Ġeas": 682,
      "Ġother": 683,
      "Ġph": 684,
      "Ġplay": 685,
      "ities": 686,
      "gy": 687,
      "Ġact": 688,
      "Ġsa": 689,
      "Ġpre": 690,
      "Ġwhen": 691,
      "ite": 692,
      "oug": 693,
      "'t": 694,
      "Ġsense": 695,
      "Ġconsider": 696,
      "Ġmost": 697,
      "Ġcheck": 698,
      "ail": 699,
      "Ġfl": 700,
      "Ġfood": 701,
      "Ġwel": 702,
      "Ġwelcome": 703,
      "cc": 704,
      "ult": 705,
      "ber": 706,
      "Ġidea": 707,
      "Ġsuch": 708,
      "Ġbest": 709,
      "Ġmusic": 710,
      "ire": 711,
      "Ġav": 712,
      "Ġinto": 713,
      "line": 714,
      "Ġcol": 715,
      "alth": 716,
      "Ġsure": 717,
      "Ġexer": 718,
      "ips": 719,
      "Ġoptions": 720,
      "vel": 721,
      "Ġlearning": 722,
      "ue": 723,
      "Ġdog": 724,
      "Ġcreat": 725,
      "Ġday": 726,
      "ĠJ": 727,
      "Ġexercis": 728,
      "hes": 729,
      "Ġ1": 730,
      "own": 731,
      "Ġper": 732,
      "Ġusually": 733,
      "ek": 734,
      "ans": 735,
      "Ġbas": 736,
      "Ġone": 737,
      "Ġwhich": 738,
      "hing": 739,
      "Ġhealth": 740,
      "ĠThis": 741,
      "Ġgam": 742,
      "uring": 743,
      "ook": 744,
      "Ġbetwe": 745,
      "Ġbetween": 746,
      "ne": 747,
      "Ġbl": 748,
      "ets": 749,
      "ices": 750,
      "Ġres": 751,
      "ĠWh": 752,
      "estions": 753,
      "ĠFor": 754,
      "Ġfamily": 755,
      "Ġkeep": 756,
      "Ġlig": 757,
      "Ġhome": 758,
      "Ġstr": 759,
      "ough": 760,
      "fore": 761,
      "ands": 762,
      "Ġpe": 763,
      "Ġbu": 764,
      "Ġwant": 765,
      "Ġpr": 766,
      "ign": 767,
      "og": 768,
      "Ġloc": 769,
      "Ġonline": 770,
      "Ġusing": 771,
      "Ġlight": 772,
      "Ġcar": 773,
      "one": 774,
      "Ġoffer": 775,
      "Ġpo": 776,
      "way": 777,
      "Ġhas": 778,
      "Ġsee": 779,
      "ures": 780,
      "ens": 781,
      "Ġweek": 782,
      "Ġfeel": 783,
      "Ġ\"": 784,
      "Ġrel": 785,
      "Ġexamp": 786,
      "ange": 787,
      "inn": 788,
      "tain": 789,
      "ical": 790,
      "ac": 791,
      "ph": 792,
      "Ġcommon": 793,
      "Ġca": 794,
      "Ġadd": 795,
      "ild": 796,
      "ons": 797,
      "Ġhaving": 798,
      "Ġsugg": 799,
      "Ġspecific": 800,
      "Ġcle": 801,
      "ated": 802,
      "Ġtips": 803,
      "Ġdifference": 804,
      "Ġeasy": 805,
      "ob": 806,
      "Ġbefore": 807,
      "Ġdifferent": 808,
      "ition": 809,
      "Ġinform": 810,
      "Ġwhile": 811,
      "pl": 812,
      "ants": 813,
      "Ġhow": 814,
      "ĠSt": 815,
      "Ġthr": 816,
      "ely": 817,
      "Ġused": 818,
      "Ġthose": 819,
      "anks": 820,
      "Ġener": 821,
      "Ġsimp": 822,
      "Ġover": 823,
      "Ġinformation": 824,
      "its": 825,
      "Ġwebs": 826,
      "orts": 827,
      "cer": 828,
      "Ġbre": 829,
      "Ġstay": 830,
      "Ġimpro": 831,
      "ople": 832,
      "yst": 833,
      "ĠThanks": 834,
      "dy": 835,
      "oy": 836,
      "Ġthis": 837,
      "ak": 838,
      "ject": 839,
      "mer": 840,
      "omet": 841,
      "Ġvar": 842,
      "Ġinterested": 843,
      "Ġhelps": 844,
      "igh": 845,
      "Ġtypes": 846,
      "Ġwas": 847,
      "Ġenergy": 848,
      "Ġsimple": 849,
      "Ġvis": 850,
      "Ġinteresting": 851,
      "Ġexample": 852,
      "ystem": 853,
      "ract": 854,
      "Ġpeople": 855,
      "Ġmin": 856,
      "ĠOne": 857,
      "ours": 858,
      "ating": 859,
      "Ġbed": 860,
      "ffect": 861,
      "Ġ(": 862,
      "Ġgen": 863,
      "iet": 864,
      "Ġ2": 865,
      "Ġlook": 866,
      "ball": 867,
      "fe": 868,
      "Ġfun": 869,
      "arm": 870,
      "ics": 871,
      "Ġve": 872,
      "ĠIn": 873,
      "Ġdon": 874,
      "Ġoff": 875,
      "Ġtra": 876,
      "Ġser": 877,
      "Ġmed": 878,
      "ows": 879,
      "Ġsun": 880,
      "ather": 881,
      "Ġduring": 882,
      "very": 883,
      "thing": 884,
      "Ġthrough": 885,
      "ids": 886,
      "iqu": 887,
      "Ġrout": 888,
      "ats": 889,
      "Ġpar": 890,
      "Ġlist": 891,
      "Ġmaking": 892,
      "Ġbeg": 893,
      "Ġcont": 894,
      "ize": 895,
      "'ve": 896,
      "Ġdown": 897,
      "Ġplanning": 898,
      "Ġactiv": 899,
      "ĠIf": 900,
      "ocus": 901,
      "ys": 902,
      "chool": 903,
      "Ġprov": 904,
      "ments": 905,
      "ge": 906,
      "gan": 907,
      "Ġacc": 908,
      "lect": 909,
      "Ġaround": 910,
      "ia": 911,
      "ates": 912,
      "Ġpart": 913,
      "Ġteam": 914,
      "Ġcommun": 915,
      "ious": 916,
      "ase": 917,
      "Ġsupp": 918,
      "Ġsomet": 919,
      "Ġreg": 920,
      "Ġimprove": 921,
      "Ġsk": 922,
      "atch": 923,
      "Ġwill": 924,
      "yc": 925,
      "Ġmight": 926,
      "Ġredu": 927,
      "Ġwhere": 928,
      "Ġcreate": 929,
      "ru": 930,
      "Ġschool": 931,
      "Ġpers": 932,
      "Ġbeginn": 933,
      "ps": 934,
      "Ġfree": 935,
      "ower": 936,
      "ci": 937,
      "Ġclass": 938,
      "Ġlearn": 939,
      "Ġset": 940,
      "Ġanim": 941,
      "Ġhigh": 942,
      "Ġtake": 943,
      "Ġeven": 944,
      "ub": 945,
      "ĠThere": 946,
      "ene": 947,
      "joy": 948,
      "ual": 949,
      "int": 950,
      "Ġsty": 951,
      "Ġgoing": 952,
      "Ġcolors": 953,
      "ix": 954,
      "Ġsmall": 955,
      "Ġevery": 956,
      "Ġnight": 957,
      "Ġreally": 958,
      "Ġtype": 959,
      "Ġsche": 960,
      "Ġart": 961,
      "Ġsuggestions": 962,
      "ib": 963,
      "ends": 964,
      "Ġdes": 965,
      "Ġsports": 966,
      "Ġbody": 967,
      "eng": 968,
      "Ġpet": 969,
      "Ġgive": 970,
      "ouble": 971,
      "Ġfocus": 972,
      "ax": 973,
      "vice": 974,
      "ord": 975,
      "ory": 976,
      "Ġshop": 977,
      "time": 978,
      "Ġair": 979,
      "Ġsoc": 980,
      "ality": 981,
      "ount": 982,
      "Ġrun": 983,
      "ian": 984,
      "ness": 985,
      "ĠU": 986,
      "Ġthese": 987,
      "Ġtrouble": 988,
      "ping": 989,
      "Ġgl": 990,
      "Ġorgan": 991,
      "Ġperson": 992,
      "ft": 993,
      "Ġwell": 994,
      "ars": 995,
      "Ġeach": 996,
      "Ġrest": 997,
      "Ġtrain": 998,
      "Ġactivities": 999,
      "Ġunder": 1000,
      "ake": 1001,
      "Ġ3": 1002,
      "ream": 1003,
      "Ġdr": 1004,
      "Ġdep": 1005,
      "Ġphot": 1006,
      "oid": 1007,
      "ish": 1008,
      "ary": 1009,
      "Ġlocal": 1010,
      "Ġideas": 1011,
      "fter": 1012,
      "vices": 1013,
      "chn": 1014,
      "Ġwear": 1015,
      "Ġfeat": 1016,
      "Ġfit": 1017,
      "Ġimport": 1018,
      "use": 1019,
      "Ġhapp": 1020,
      "Ġkind": 1021,
      "Ġveget": 1022,
      "red": 1023
    },
    "merges": [
      [
        "a",
        "n"
      ],
      [
        "Ġ",
        "t"
      ],
      [
        "e",
        "n"
      ],
      [
        "i",
        "n"
      ],
      [
        "e",
        "r"
      ],
      [
        "Ġ",
        "a"
      ],
      [
        "en",
        "d"
      ],
      [
        "Ġ",
        "s"
      ],
      [
        "o",
        "u"
      ],
      [
        "Ġ",
        "<"
      ],
      [
        "Ġ",
        "c"
      ],
      [
        "h",
        "e"
      ],
      [
        "a",
        "t"
      ],
      [
        "r",
        "e"
      ],
      [
        "i",
        "s"
      ],
      [
        "o",
        "r"
      ],
      [
        "a",
        "s"
      ],
      [
        "u",
        "s"
      ],
      [
        "in",
        "g"
      ],
      [
        "e",
        "s"
      ],
      [
        "o",
        "n"
      ],
      [
        "Ġ",
        "an"
      ],
      [
        "Ġ",
        "f"
      ],
      [
        "Ġ",
        "I"
      ],
      [
        "Ġt",
        "o"
      ],
      [
        "Ġ",
        "w"
      ],
      [
        "an",
        "t"
      ],
      [
        "is",
        "t"
      ],
      [
        "Ġ",
        "m"
      ],
      [
        "as",
        "s"
      ],
      [
        "us",
        "er"
      ],
      [
        "Ġan",
        "d"
      ],
      [
        "Ġ",
        "y"
      ],
      [
        "Ġ",
        "p"
      ],
      [
        "ist",
        "ant"
      ],
      [
        "i",
        "t"
      ],
      [
        "Ġ",
        "b"
      ],
      [
        "ass",
        "istant"
      ],
      [
        "Ġy",
        "ou"
      ],
      [
        "Ġt",
        "he"
      ],
      [
        "l",
        "l"
      ],
      [
        "Ġ",
        "H"
      ],
      [
        "a",
        "r"
      ],
      [
        "h",
        "at"
      ],
      [
        "Ġ",
        "l"
      ],
      [
        "Ġ",
        "o"
      ],
      [
        "Ġ",
        "d"
      ],
      [
        "o",
        "m"
      ],
      [
        "Ġ",
        "in"
      ],
      [
        "Ġ",
        "g"
      ],
      [
        "Ġc",
        "an"
      ],
      [
        "a",
        "y"
      ],
      [
        "o",
        "w"
      ],
      [
        "a",
        "l"
      ],
      [
        "i",
        "c"
      ],
      [
        "l",
        "e"
      ],
      [
        "Ġ",
        "h"
      ],
      [
        "Ġ",
        "T"
      ],
      [
        "Ġ",
        "he"
      ],
      [
        "e",
        "d"
      ],
      [
        "Ġf",
        "or"
      ],
      [
        "i",
        "on"
      ],
      [
        "Ġo",
        "f"
      ],
      [
        "o",
        "o"
      ],
      [
        "e",
        "t"
      ],
      [
        "v",
        "e"
      ],
      [
        "Ġ",
        "e"
      ],
      [
        "Ġhe",
        "l"
      ],
      [
        "Ġhel",
        "p"
      ],
      [
        "Ġ",
        "W"
      ],
      [
        "Ġt",
        "h"
      ],
      [
        "Ġ",
        "re"
      ],
      [
        "'",
        "s"
      ],
      [
        "k",
        "e"
      ],
      [
        "e",
        "ll"
      ],
      [
        "Ġ",
        "n"
      ],
      [
        "en",
        "t"
      ],
      [
        "Ġ",
        "Y"
      ],
      [
        "Ġ",
        "or"
      ],
      [
        "Ġs",
        "t"
      ],
      [
        "c",
        "t"
      ],
      [
        "ĠW",
        "hat"
      ],
      [
        "i",
        "d"
      ],
      [
        "Ġ",
        "is"
      ],
      [
        "ĠH",
        "ow"
      ],
      [
        "om",
        "e"
      ],
      [
        "r",
        "o"
      ],
      [
        "ĠH",
        "ell"
      ],
      [
        "ĠHell",
        "o"
      ],
      [
        "a",
        "m"
      ],
      [
        "i",
        "m"
      ],
      [
        "u",
        "l"
      ],
      [
        "Ġa",
        "re"
      ],
      [
        "ou",
        "t"
      ],
      [
        "Ġl",
        "i"
      ],
      [
        "d",
        "ay"
      ],
      [
        "Ġyou",
        "r"
      ],
      [
        "'",
        "m"
      ],
      [
        "Ġt",
        "r"
      ],
      [
        "Ġto",
        "day"
      ],
      [
        "Ġ",
        "on"
      ],
      [
        "c",
        "h"
      ],
      [
        "a",
        "ll"
      ],
      [
        "Ġh",
        "a"
      ],
      [
        "ou",
        "n"
      ],
      [
        "ĠT",
        "hat"
      ],
      [
        "d",
        "s"
      ],
      [
        "Ġ",
        "it"
      ],
      [
        "t",
        "h"
      ],
      [
        "o",
        "p"
      ],
      [
        "Ġs",
        "u"
      ],
      [
        "it",
        "h"
      ],
      [
        "i",
        "g"
      ],
      [
        "i",
        "l"
      ],
      [
        "c",
        "e"
      ],
      [
        "s",
        "t"
      ],
      [
        "Ġw",
        "ith"
      ],
      [
        "k",
        "ing"
      ],
      [
        "Ġm",
        "a"
      ],
      [
        "Ġb",
        "e"
      ],
      [
        "es",
        "t"
      ],
      [
        "at",
        "ion"
      ],
      [
        "i",
        "f"
      ],
      [
        "Ġ",
        "A"
      ],
      [
        "Ġt",
        "hat"
      ],
      [
        "t",
        "er"
      ],
      [
        "er",
        "e"
      ],
      [
        "e",
        "l"
      ],
      [
        "Ġli",
        "ke"
      ],
      [
        "oo",
        "d"
      ],
      [
        "Ġm",
        "o"
      ],
      [
        "u",
        "t"
      ],
      [
        "i",
        "r"
      ],
      [
        "ĠY",
        "ou"
      ],
      [
        "s",
        "e"
      ],
      [
        "Ġ",
        "S"
      ],
      [
        "re",
        "at"
      ],
      [
        "er",
        "s"
      ],
      [
        "Ġha",
        "ve"
      ],
      [
        "Ġ",
        "r"
      ],
      [
        "Ġa",
        "l"
      ],
      [
        "Ġs",
        "h"
      ],
      [
        "Ġ",
        "us"
      ],
      [
        "Ġd",
        "o"
      ],
      [
        "u",
        "r"
      ],
      [
        "o",
        "t"
      ],
      [
        "ĠH",
        "i"
      ],
      [
        "Ġ",
        "v"
      ],
      [
        "Ġn",
        "e"
      ],
      [
        "u",
        "n"
      ],
      [
        "Ġa",
        "b"
      ],
      [
        "Ġs",
        "ome"
      ],
      [
        "h",
        "t"
      ],
      [
        "Ġan",
        "y"
      ],
      [
        "Ġe",
        "x"
      ],
      [
        "Ġw",
        "h"
      ],
      [
        "a",
        "b"
      ],
      [
        "o",
        "l"
      ],
      [
        "Ġp",
        "l"
      ],
      [
        "Ġab",
        "out"
      ],
      [
        "e",
        "p"
      ],
      [
        "ĠT",
        "he"
      ],
      [
        "ĠY",
        "es"
      ],
      [
        "Ġc",
        "on"
      ],
      [
        "Ġ",
        "C"
      ],
      [
        "s",
        "o"
      ],
      [
        "Ġs",
        "oun"
      ],
      [
        "p",
        "e"
      ],
      [
        "Ġ",
        "D"
      ],
      [
        "Ġc",
        "om"
      ],
      [
        "c",
        "k"
      ],
      [
        "u",
        "d"
      ],
      [
        "ul",
        "ar"
      ],
      [
        "a",
        "d"
      ],
      [
        "i",
        "es"
      ],
      [
        "Ġa",
        "s"
      ],
      [
        "id",
        "e"
      ],
      [
        "ar",
        "t"
      ],
      [
        "Ġsoun",
        "ds"
      ],
      [
        "Ġal",
        "so"
      ],
      [
        "ion",
        "s"
      ],
      [
        "Ġw",
        "e"
      ],
      [
        "p",
        "p"
      ],
      [
        "Ġth",
        "ere"
      ],
      [
        "Ġm",
        "y"
      ],
      [
        "q",
        "u"
      ],
      [
        "Ġin",
        "c"
      ],
      [
        "l",
        "d"
      ],
      [
        "l",
        "y"
      ],
      [
        "a",
        "in"
      ],
      [
        "Ġc",
        "h"
      ],
      [
        "Ġg",
        "ood"
      ],
      [
        "Ġ",
        "O"
      ],
      [
        "Ġp",
        "ro"
      ],
      [
        "all",
        "y"
      ],
      [
        "re",
        "s"
      ],
      [
        "Ġp",
        "op"
      ],
      [
        "v",
        "er"
      ],
      [
        "e",
        "m"
      ],
      [
        "es",
        "s"
      ],
      [
        "ig",
        "ht"
      ],
      [
        "i",
        "p"
      ],
      [
        "Ġpop",
        "ular"
      ],
      [
        "Ġs",
        "e"
      ],
      [
        "a",
        "g"
      ],
      [
        "or",
        "t"
      ],
      [
        "Ġl",
        "oo"
      ],
      [
        "Ġl",
        "e"
      ],
      [
        "f",
        "er"
      ],
      [
        "k",
        "s"
      ],
      [
        "Ġw",
        "or"
      ],
      [
        "Ġg",
        "reat"
      ],
      [
        "in",
        "d"
      ],
      [
        "Ġinc",
        "l"
      ],
      [
        "Ġincl",
        "ud"
      ],
      [
        "Ġ",
        "k"
      ],
      [
        "Ġf",
        "r"
      ],
      [
        "i",
        "ve"
      ],
      [
        "ou",
        "r"
      ],
      [
        "Ġm",
        "e"
      ],
      [
        "ou",
        "ld"
      ],
      [
        "e",
        "ct"
      ],
      [
        "ĠT",
        "h"
      ],
      [
        "Ġtr",
        "y"
      ],
      [
        "i",
        "v"
      ],
      [
        "Ġa",
        "t"
      ],
      [
        "ĠD",
        "o"
      ],
      [
        "ĠI",
        "t"
      ],
      [
        "it",
        "y"
      ],
      [
        "ab",
        "le"
      ],
      [
        "o",
        "c"
      ],
      [
        "in",
        "e"
      ],
      [
        "'",
        "re"
      ],
      [
        "n",
        "ing"
      ],
      [
        "Ġ",
        "en"
      ],
      [
        "im",
        "p"
      ],
      [
        "p",
        "t"
      ],
      [
        "Ġmo",
        "re"
      ],
      [
        "at",
        "e"
      ],
      [
        "r",
        "a"
      ],
      [
        "Ġ",
        "M"
      ],
      [
        "'",
        "ll"
      ],
      [
        "Ġre",
        "c"
      ],
      [
        "Ġin",
        "ter"
      ],
      [
        "o",
        "s"
      ],
      [
        "i",
        "al"
      ],
      [
        "Ġloo",
        "king"
      ],
      [
        "Ġa",
        "d"
      ],
      [
        "m",
        "ent"
      ],
      [
        "Ġc",
        "l"
      ],
      [
        "as",
        "t"
      ],
      [
        "Ġinclud",
        "e"
      ],
      [
        "an",
        "d"
      ],
      [
        "Ġ",
        "F"
      ],
      [
        "at",
        "er"
      ],
      [
        "i",
        "ll"
      ],
      [
        "Ġs",
        "p"
      ],
      [
        "Ġd",
        "e"
      ],
      [
        "u",
        "re"
      ],
      [
        "im",
        "e"
      ],
      [
        "o",
        "re"
      ],
      [
        "u",
        "p"
      ],
      [
        "u",
        "m"
      ],
      [
        "ic",
        "e"
      ],
      [
        "Ġb",
        "ut"
      ],
      [
        "Ġf",
        "e"
      ],
      [
        "k",
        "ay"
      ],
      [
        "Ġne",
        "w"
      ],
      [
        "Ġ",
        "E"
      ],
      [
        "Ġg",
        "et"
      ],
      [
        "an",
        "y"
      ],
      [
        "ĠO",
        "kay"
      ],
      [
        "Ġ",
        "G"
      ],
      [
        "Ġfr",
        "om"
      ],
      [
        "ar",
        "d"
      ],
      [
        "f",
        "f"
      ],
      [
        "Ġg",
        "r"
      ],
      [
        "or",
        "m"
      ],
      [
        "Ġb",
        "y"
      ],
      [
        "Ġt",
        "y"
      ],
      [
        "ĠThe",
        "y"
      ],
      [
        "le",
        "ep"
      ],
      [
        "an",
        "g"
      ],
      [
        "Ġst",
        "art"
      ],
      [
        "Ġd",
        "if"
      ],
      [
        "Ġt",
        "e"
      ],
      [
        "Ġth",
        "in"
      ],
      [
        "i",
        "z"
      ],
      [
        "d",
        "u"
      ],
      [
        "Ġ",
        "ide"
      ],
      [
        "f",
        "ul"
      ],
      [
        "Ġ",
        "P"
      ],
      [
        "Ġc",
        "he"
      ],
      [
        "e",
        "y"
      ],
      [
        "k",
        "es"
      ],
      [
        "ation",
        "s"
      ],
      [
        "Ġdif",
        "fer"
      ],
      [
        "Ġs",
        "leep"
      ],
      [
        "Ġ",
        "j"
      ],
      [
        "Ġcom",
        "m"
      ],
      [
        "th",
        "er"
      ],
      [
        "l",
        "es"
      ],
      [
        "Ġs",
        "pe"
      ],
      [
        "Ġcon",
        "s"
      ],
      [
        "Ġle",
        "ar"
      ],
      [
        "Ġs",
        "c"
      ],
      [
        "Ġw",
        "ay"
      ],
      [
        "us",
        "t"
      ],
      [
        "Ġma",
        "ke"
      ],
      [
        "an",
        "ce"
      ],
      [
        "a",
        "ck"
      ],
      [
        "v",
        "ing"
      ],
      [
        "Ġa",
        "r"
      ],
      [
        "Ġg",
        "o"
      ],
      [
        "Ġus",
        "e"
      ],
      [
        "Ġne",
        "ed"
      ],
      [
        "Ġinter",
        "est"
      ],
      [
        "Ġsh",
        "ould"
      ],
      [
        "Ġ",
        "B"
      ],
      [
        "Ġ",
        "imp"
      ],
      [
        "Ġwor",
        "k"
      ],
      [
        "n",
        "ow"
      ],
      [
        "en",
        "ce"
      ],
      [
        "Ġ",
        "out"
      ],
      [
        "t",
        "ing"
      ],
      [
        "Ġthe",
        "m"
      ],
      [
        "al",
        "s"
      ],
      [
        "Ġ",
        "N"
      ],
      [
        "c",
        "es"
      ],
      [
        "f",
        "orm"
      ],
      [
        "a",
        "re"
      ],
      [
        "t",
        "s"
      ],
      [
        "t",
        "en"
      ],
      [
        "ent",
        "s"
      ],
      [
        "ĠS",
        "ome"
      ],
      [
        "Ġb",
        "r"
      ],
      [
        "Ġf",
        "am"
      ],
      [
        "Ġ",
        "up"
      ],
      [
        "Ġt",
        "a"
      ],
      [
        "ic",
        "h"
      ],
      [
        "om",
        "m"
      ],
      [
        "Ġ",
        "if"
      ],
      [
        "d",
        "er"
      ],
      [
        "Ġthe",
        "ir"
      ],
      [
        "a",
        "p"
      ],
      [
        "g",
        "g"
      ],
      [
        "Ġth",
        "an"
      ],
      [
        "Ġo",
        "pt"
      ],
      [
        "on",
        "g"
      ],
      [
        "ĠA",
        "re"
      ],
      [
        "Ġa",
        "pp"
      ],
      [
        "ag",
        "e"
      ],
      [
        "Ġ",
        "ro"
      ],
      [
        "Ġt",
        "ime"
      ],
      [
        "or",
        "s"
      ],
      [
        "Ġf",
        "ind"
      ],
      [
        "Ġb",
        "et"
      ],
      [
        "a",
        "ct"
      ],
      [
        "w",
        "e"
      ],
      [
        "h",
        "er"
      ],
      [
        "Ġs",
        "o"
      ],
      [
        "p",
        "er"
      ],
      [
        "Ġ",
        "ke"
      ],
      [
        "oo",
        "l"
      ],
      [
        "a",
        "ch"
      ],
      [
        "Ġ",
        "un"
      ],
      [
        "r",
        "y"
      ],
      [
        "Ġm",
        "us"
      ],
      [
        "Ġm",
        "any"
      ],
      [
        "id",
        "er"
      ],
      [
        "ĠC",
        "an"
      ],
      [
        "g",
        "et"
      ],
      [
        "Ġ",
        "qu"
      ],
      [
        "Ġw",
        "hat"
      ],
      [
        "b",
        "s"
      ],
      [
        "r",
        "i"
      ],
      [
        "il",
        "y"
      ],
      [
        "Ġs",
        "en"
      ],
      [
        "Ġc",
        "o"
      ],
      [
        "Ġw",
        "ater"
      ],
      [
        "Ġthe",
        "y"
      ],
      [
        "Ġa",
        "ll"
      ],
      [
        "Ġ",
        "R"
      ],
      [
        "Ġcom",
        "p"
      ],
      [
        "Ġin",
        "t"
      ],
      [
        "o",
        "se"
      ],
      [
        "Ġs",
        "m"
      ],
      [
        "i",
        "le"
      ],
      [
        "Ġb",
        "o"
      ],
      [
        "Ġspe",
        "c"
      ],
      [
        "Ġn",
        "ot"
      ],
      [
        "Ġhelp",
        "ful"
      ],
      [
        "res",
        "s"
      ],
      [
        "b",
        "le"
      ],
      [
        "i",
        "e"
      ],
      [
        "ĠI",
        "s"
      ],
      [
        "a",
        "v"
      ],
      [
        "omm",
        "end"
      ],
      [
        "Ġrec",
        "ommend"
      ],
      [
        "u",
        "ally"
      ],
      [
        "ou",
        "s"
      ],
      [
        "Ġ",
        "L"
      ],
      [
        "ic",
        "k"
      ],
      [
        "am",
        "p"
      ],
      [
        "Ġma",
        "in"
      ],
      [
        "Ġk",
        "now"
      ],
      [
        "Ġe",
        "v"
      ],
      [
        "Ġty",
        "p"
      ],
      [
        "Ġthin",
        "k"
      ],
      [
        "Ġma",
        "kes"
      ],
      [
        "ing",
        "s"
      ],
      [
        "Ġof",
        "ten"
      ],
      [
        "re",
        "e"
      ],
      [
        "if",
        "ic"
      ],
      [
        "a",
        "ce"
      ],
      [
        "Ġpl",
        "an"
      ],
      [
        "c",
        "ome"
      ],
      [
        "c",
        "is"
      ],
      [
        "oun",
        "d"
      ],
      [
        "Ġd",
        "is"
      ],
      [
        "ĠH",
        "ey"
      ],
      [
        "Ġe",
        "as"
      ],
      [
        "Ġo",
        "ther"
      ],
      [
        "Ġp",
        "h"
      ],
      [
        "Ġpl",
        "ay"
      ],
      [
        "it",
        "ies"
      ],
      [
        "g",
        "y"
      ],
      [
        "Ġa",
        "ct"
      ],
      [
        "Ġs",
        "a"
      ],
      [
        "Ġp",
        "re"
      ],
      [
        "Ġwh",
        "en"
      ],
      [
        "it",
        "e"
      ],
      [
        "ou",
        "g"
      ],
      [
        "'",
        "t"
      ],
      [
        "Ġsen",
        "se"
      ],
      [
        "Ġcons",
        "ider"
      ],
      [
        "Ġmo",
        "st"
      ],
      [
        "Ġche",
        "ck"
      ],
      [
        "a",
        "il"
      ],
      [
        "Ġf",
        "l"
      ],
      [
        "Ġf",
        "ood"
      ],
      [
        "Ġw",
        "el"
      ],
      [
        "Ġwel",
        "come"
      ],
      [
        "c",
        "c"
      ],
      [
        "ul",
        "t"
      ],
      [
        "b",
        "er"
      ],
      [
        "Ġide",
        "a"
      ],
      [
        "Ġsu",
        "ch"
      ],
      [
        "Ġb",
        "est"
      ],
      [
        "Ġmus",
        "ic"
      ],
      [
        "i",
        "re"
      ],
      [
        "Ġa",
        "v"
      ],
      [
        "Ġint",
        "o"
      ],
      [
        "l",
        "ine"
      ],
      [
        "Ġc",
        "ol"
      ],
      [
        "al",
        "th"
      ],
      [
        "Ġsu",
        "re"
      ],
      [
        "Ġex",
        "er"
      ],
      [
        "ip",
        "s"
      ],
      [
        "Ġopt",
        "ions"
      ],
      [
        "ve",
        "l"
      ],
      [
        "Ġlear",
        "ning"
      ],
      [
        "u",
        "e"
      ],
      [
        "Ġdo",
        "g"
      ],
      [
        "Ġc",
        "reat"
      ],
      [
        "Ġd",
        "ay"
      ],
      [
        "Ġ",
        "J"
      ],
      [
        "Ġexer",
        "cis"
      ],
      [
        "he",
        "s"
      ],
      [
        "Ġ",
        "1"
      ],
      [
        "ow",
        "n"
      ],
      [
        "Ġp",
        "er"
      ],
      [
        "Ġus",
        "ually"
      ],
      [
        "e",
        "k"
      ],
      [
        "an",
        "s"
      ],
      [
        "Ġb",
        "as"
      ],
      [
        "Ġon",
        "e"
      ],
      [
        "Ġwh",
        "ich"
      ],
      [
        "h",
        "ing"
      ],
      [
        "Ġhe",
        "alth"
      ],
      [
        "ĠTh",
        "is"
      ],
      [
        "Ġg",
        "am"
      ],
      [
        "ur",
        "ing"
      ],
      [
        "oo",
        "k"
      ],
      [
        "Ġbet",
        "we"
      ],
      [
        "Ġbetwe",
        "en"
      ],
      [
        "n",
        "e"
      ],
      [
        "Ġb",
        "l"
      ],
      [
        "et",
        "s"
      ],
      [
        "ic",
        "es"
      ],
      [
        "Ġre",
        "s"
      ],
      [
        "ĠW",
        "h"
      ],
      [
        "est",
        "ions"
      ],
      [
        "ĠF",
        "or"
      ],
      [
        "Ġfam",
        "ily"
      ],
      [
        "Ġke",
        "ep"
      ],
      [
        "Ġli",
        "g"
      ],
      [
        "Ġh",
        "ome"
      ],
      [
        "Ġst",
        "r"
      ],
      [
        "oug",
        "h"
      ],
      [
        "f",
        "ore"
      ],
      [
        "an",
        "ds"
      ],
      [
        "Ġp",
        "e"
      ],
      [
        "Ġb",
        "u"
      ],
      [
        "Ġw",
        "ant"
      ],
      [
        "Ġp",
        "r"
      ],
      [
        "ig",
        "n"
      ],
      [
        "o",
        "g"
      ],
      [
        "Ġl",
        "oc"
      ],
      [
        "Ġon",
        "line"
      ],
      [
        "Ġus",
        "ing"
      ],
      [
        "Ġlig",
        "ht"
      ],
      [
        "Ġc",
        "ar"
      ],
      [
        "on",
        "e"
      ],
      [
        "Ġof",
        "fer"
      ],
      [
        "Ġp",
        "o"
      ],
      [
        "w",
        "ay"
      ],
      [
        "Ġh",
        "as"
      ],
      [
        "Ġse",
        "e"
      ],
      [
        "u",
        "res"
      ],
      [
        "en",
        "s"
      ],
      [
        "Ġwe",
        "ek"
      ],
      [
        "Ġfe",
        "el"
      ],
      [
        "Ġ",
        "\""
      ],
      [
        "Ġre",
        "l"
      ],
      [
        "Ġex",
        "amp"
      ],
      [
        "ang",
        "e"
      ],
      [
        "in",
        "n"
      ],
      [
        "t",
        "ain"
      ],
      [
        "ic",
        "al"
      ],
      [
        "a",
        "c"
      ],
      [
        "p",
        "h"
      ],
      [
        "Ġcomm",
        "on"
      ],
      [
        "Ġc",
        "a"
      ],
      [
        "Ġad",
        "d"
      ],
      [
        "il",
        "d"
      ],
      [
        "on",
        "s"
      ],
      [
        "Ġha",
        "ving"
      ],
      [
        "Ġsu",
        "gg"
      ],
      [
        "Ġspec",
        "ific"
      ],
      [
        "Ġc",
        "le"
      ],
      [
        "at",
        "ed"
      ],
      [
        "Ġt",
        "ips"
      ],
      [
        "Ġdiffer",
        "ence"
      ],
      [
        "Ġeas",
        "y"
      ],
      [
        "o",
        "b"
      ],
      [
        "Ġbe",
        "fore"
      ],
      [
        "Ġdiffer",
        "ent"
      ],
      [
        "it",
        "ion"
      ],
      [
        "Ġin",
        "form"
      ],
      [
        "Ġwh",
        "ile"
      ],
      [
        "p",
        "l"
      ],
      [
        "ant",
        "s"
      ],
      [
        "Ġh",
        "ow"
      ],
      [
        "ĠS",
        "t"
      ],
      [
        "Ġth",
        "r"
      ],
      [
        "el",
        "y"
      ],
      [
        "Ġus",
        "ed"
      ],
      [
        "Ġth",
        "ose"
      ],
      [
        "an",
        "ks"
      ],
      [
        "Ġen",
        "er"
      ],
      [
        "Ġs",
        "imp"
      ],
      [
        "Ġo",
        "ver"
      ],
      [
        "Ġinform",
        "ation"
      ],
      [
        "it",
        "s"
      ],
      [
        "Ġwe",
        "bs"
      ],
      [
        "ort",
        "s"
      ],
      [
        "c",
        "er"
      ],
      [
        "Ġb",
        "re"
      ],
      [
        "Ġst",
        "ay"
      ],
      [
        "Ġimp",
        "ro"
      ],
      [
        "op",
        "le"
      ],
      [
        "y",
        "st"
      ],
      [
        "ĠTh",
        "anks"
      ],
      [
        "d",
        "y"
      ],
      [
        "o",
        "y"
      ],
      [
        "Ġth",
        "is"
      ],
      [
        "a",
        "k"
      ],
      [
        "j",
        "ect"
      ],
      [
        "m",
        "er"
      ],
      [
        "om",
        "et"
      ],
      [
        "Ġv",
        "ar"
      ],
      [
        "Ġinterest",
        "ed"
      ],
      [
        "Ġhelp",
        "s"
      ],
      [
        "ig",
        "h"
      ],
      [
        "Ġtyp",
        "es"
      ],
      [
        "Ġw",
        "as"
      ],
      [
        "Ġener",
        "gy"
      ],
      [
        "Ġsimp",
        "le"
      ],
      [
        "Ġv",
        "is"
      ],
      [
        "Ġinterest",
        "ing"
      ],
      [
        "Ġexamp",
        "le"
      ],
      [
        "yst",
        "em"
      ],
      [
        "ra",
        "ct"
      ],
      [
        "Ġpe",
        "ople"
      ],
      [
        "Ġm",
        "in"
      ],
      [
        "ĠO",
        "ne"
      ],
      [
        "our",
        "s"
      ],
      [
        "at",
        "ing"
      ],
      [
        "Ġb",
        "ed"
      ],
      [
        "ff",
        "ect"
      ],
      [
        "Ġ",
        "("
      ],
      [
        "Ġg",
        "en"
      ],
      [
        "i",
        "et"
      ],
      [
        "Ġ",
        "2"
      ],
      [
        "Ġloo",
        "k"
      ],
      [
        "b",
        "all"
      ],
      [
        "f",
        "e"
      ],
      [
        "Ġf",
        "un"
      ],
      [
        "ar",
        "m"
      ],
      [
        "ic",
        "s"
      ],
      [
        "Ġ",
        "ve"
      ],
      [
        "ĠI",
        "n"
      ],
      [
        "Ġd",
        "on"
      ],
      [
        "Ġof",
        "f"
      ],
      [
        "Ġtr",
        "a"
      ],
      [
        "Ġs",
        "er"
      ],
      [
        "Ġm",
        "ed"
      ],
      [
        "ow",
        "s"
      ],
      [
        "Ġsu",
        "n"
      ],
      [
        "at",
        "her"
      ],
      [
        "Ġd",
        "uring"
      ],
      [
        "ver",
        "y"
      ],
      [
        "th",
        "ing"
      ],
      [
        "Ġthr",
        "ough"
      ],
      [
        "id",
        "s"
      ],
      [
        "i",
        "qu"
      ],
      [
        "Ġr",
        "out"
      ],
      [
        "at",
        "s"
      ],
      [
        "Ġp",
        "ar"
      ],
      [
        "Ġl",
        "ist"
      ],
      [
        "Ġma",
        "king"
      ],
      [
        "Ġbe",
        "g"
      ],
      [
        "Ġcon",
        "t"
      ],
      [
        "iz",
        "e"
      ],
      [
        "'",
        "ve"
      ],
      [
        "Ġd",
        "own"
      ],
      [
        "Ġplan",
        "ning"
      ],
      [
        "Ġact",
        "iv"
      ],
      [
        "ĠI",
        "f"
      ],
      [
        "oc",
        "us"
      ],
      [
        "y",
        "s"
      ],
      [
        "ch",
        "ool"
      ],
      [
        "Ġpro",
        "v"
      ],
      [
        "ment",
        "s"
      ],
      [
        "g",
        "e"
      ],
      [
        "g",
        "an"
      ],
      [
        "Ġa",
        "cc"
      ],
      [
        "le",
        "ct"
      ],
      [
        "Ġar",
        "ound"
      ],
      [
        "i",
        "a"
      ],
      [
        "at",
        "es"
      ],
      [
        "Ġp",
        "art"
      ],
      [
        "Ġte",
        "am"
      ],
      [
        "Ġcomm",
        "un"
      ],
      [
        "i",
        "ous"
      ],
      [
        "as",
        "e"
      ],
      [
        "Ġsu",
        "pp"
      ],
      [
        "Ġs",
        "omet"
      ],
      [
        "Ġre",
        "g"
      ],
      [
        "Ġimpro",
        "ve"
      ],
      [
        "Ġs",
        "k"
      ],
      [
        "at",
        "ch"
      ],
      [
        "Ġw",
        "ill"
      ],
      [
        "y",
        "c"
      ],
      [
        "Ġm",
        "ight"
      ],
      [
        "Ġre",
        "du"
      ],
      [
        "Ġwh",
        "ere"
      ],
      [
        "Ġcreat",
        "e"
      ],
      [
        "r",
        "u"
      ],
      [
        "Ġs",
        "chool"
      ],
      [
        "Ġp",
        "ers"
      ],
      [
        "Ġbeg",
        "inn"
      ],
      [
        "p",
        "s"
      ],
      [
        "Ġf",
        "ree"
      ],
      [
        "ow",
        "er"
      ],
      [
        "c",
        "i"
      ],
      [
        "Ġcl",
        "ass"
      ],
      [
        "Ġlear",
        "n"
      ],
      [
        "Ġs",
        "et"
      ],
      [
        "Ġan",
        "im"
      ],
      [
        "Ġh",
        "igh"
      ],
      [
        "Ġta",
        "ke"
      ],
      [
        "Ġev",
        "en"
      ],
      [
        "u",
        "b"
      ],
      [
        "ĠTh",
        "ere"
      ],
      [
        "en",
        "e"
      ],
      [
        "j",
        "oy"
      ],
      [
        "u",
        "al"
      ],
      [
        "in",
        "t"
      ],
      [
        "Ġst",
        "y"
      ],
      [
        "Ġgo",
        "ing"
      ],
      [
        "Ġcol",
        "ors"
      ],
      [
        "i",
        "x"
      ],
      [
        "Ġsm",
        "all"
      ],
      [
        "Ġe",
        "very"
      ],
      [
        "Ġn",
        "ight"
      ],
      [
        "Ġre",
        "ally"
      ],
      [
        "Ġty",
        "pe"
      ],
      [
        "Ġsc",
        "he"
      ],
      [
        "Ġar",
        "t"
      ],
      [
        "Ġsugg",
        "estions"
      ],
      [
        "i",
        "b"
      ],
      [
        "end",
        "s"
      ],
      [
        "Ġd",
        "es"
      ],
      [
        "Ġsp",
        "orts"
      ],
      [
        "Ġbo",
        "dy"
      ],
      [
        "en",
        "g"
      ],
      [
        "Ġp",
        "et"
      ],
      [
        "Ġg",
        "ive"
      ],
      [
        "ou",
        "ble"
      ],
      [
        "Ġf",
        "ocus"
      ],
      [
        "a",
        "x"
      ],
      [
        "v",
        "ice"
      ],
      [
        "or",
        "d"
      ],
      [
        "or",
        "y"
      ],
      [
        "Ġsh",
        "op"
      ],
      [
        "t",
        "ime"
      ],
      [
        "Ġa",
        "ir"
      ],
      [
        "Ġs",
        "oc"
      ],
      [
        "al",
        "ity"
      ],
      [
        "oun",
        "t"
      ],
      [
        "Ġr",
        "un"
      ],
      [
        "i",
        "an"
      ],
      [
        "n",
        "ess"
      ],
      [
        "Ġ",
        "U"
      ],
      [
        "Ġthe",
        "se"
      ],
      [
        "Ġtr",
        "ouble"
      ],
      [
        "p",
        "ing"
      ],
      [
        "Ġg",
        "l"
      ],
      [
        "Ġor",
        "gan"
      ],
      [
        "Ġpers",
        "on"
      ],
      [
        "f",
        "t"
      ],
      [
        "Ġw",
        "ell"
      ],
      [
        "ar",
        "s"
      ],
      [
        "Ġe",
        "ach"
      ],
      [
        "Ġre",
        "st"
      ],
      [
        "Ġtr",
        "ain"
      ],
      [
        "Ġactiv",
        "ities"
      ],
      [
        "Ġun",
        "der"
      ],
      [
        "a",
        "ke"
      ],
      [
        "Ġ",
        "3"
      ],
      [
        "re",
        "am"
      ],
      [
        "Ġd",
        "r"
      ],
      [
        "Ġd",
        "ep"
      ],
      [
        "Ġph",
        "ot"
      ],
      [
        "o",
        "id"
      ],
      [
        "is",
        "h"
      ],
      [
        "ar",
        "y"
      ],
      [
        "Ġloc",
        "al"
      ],
      [
        "Ġide",
        "as"
      ],
      [
        "f",
        "ter"
      ],
      [
        "v",
        "ices"
      ],
      [
        "ch",
        "n"
      ],
      [
        "Ġwe",
        "ar"
      ],
      [
        "Ġfe",
        "at"
      ],
      [
        "Ġf",
        "it"
      ],
      [
        "Ġimp",
        "ort"
      ],
      [
        "us",
        "e"
      ],
      [
        "Ġha",
        "pp"
      ],
      [
        "Ġk",
        "ind"
      ],
      [
        "Ġve",
        "get"
      ],
      [
        "re",
        "d"
      ]
    ]
  }
}